0A7
0E9
137
D73
15C
D92
04F
DD0
F1B
D5B
1C0
F43
1AC
D21
EF4
1F9
125
189
D63
D9F
073
074
DB8
E05
E92
1C7
EEE
E67
20C
235
FC7
068
E71
D88
027
FB2
F0E
E11
13D
0CF
DCB
0D5
1EF
F57
10A
CD4
F4D
1A7
DD0
12C
E81
0B3
284
F41
0A6
DB4
09B
0E6
061
066
19E
D4E
FFD
0DA
E48
F97
11A
EE1
0F5
F13
FDB
EFE
FD7
ED7
05F
E5D
EB6
0CB
15C
1F1
076
0DE
0EA
DAA
0AE
B47
F3F
154
F50
FE2
DFD
1B2
24A
B82
2A4
0DD

