625
793
6CD
118
60C
000
7D4
7B6
03E
001
734
081
70D
018
000
776
084
000
019
000
04A
000
000
00A
145
000
7B6
000
081
000
0E0
739
000
000
09C
000
683
086
06E
00A
678
758
728
72C
7BC
717
092
6D4
000
7D6
000
6B5
000
745
12A
755
000
033
7DC
7CE
000
739
7E0
789
0B3
000
000
000
000
060
75B
065
793
798
6E5
7DF
793
7DA
77D
089
000
07C
734
000
1FE
11A
008
000
000
730
77F
030
030
7B7
7BA
018
750
126
065
000
000
000
0C0
6C1
76F
000
077
000
795
094
7D6
00C
050
79E
7F0
000
6A9
000
081
025
000
000
796
7DC
78C
000
06B
783
7EC
000
0CA
06B
144
04F
729
11C
0A7
74A
0CB
0A0
029
000
079
0C9
000
6D9
788
700
0CC
7FB
124
15C
7F9
7CA
797
000
07E
000
125
672
7B8
743
0E2
000
000
027
000
000
000
09F
14F
6E5
000
709
03E
61A
000
000
000
000
768
165
000
6DE
0B6
000
7C0
795
76E
000
781
08D
000
0D0
000
1C6
7FB
048
00A
028
750
75A
000
000
000
000
6C8
062
7E0
767
0E7
128
043
142
07B
000
727
7E1
7AE
6FD
7BB
7CE
14F
0BA
795
0C0
000
000
7B3
798
074
653
000
0D2
7F3
000
79D
000
106
073
148
030
0F4
6D1
7FA
036
7C5
75C
000
775
0E8
0DF
0B2
049
070
16B
09F
0CC
581
700
7B7
000
067
093
000
000
000
000
09E
718
000
000
79E
660
7BC
06F
6E9
006
6B4
217
01D
774
000
7B9
04B
748
06F
031
681
000
7C8
000
000
000
083
0BB
000
067
7B7
000
000
720
000
70F
000
0B7
05E
7E4
751
0CE
157
09E
793
78A
0B0
712
0E6
000
000
799
6E2
7CE
072
032
030
000
078
0A9
2DC
000
000
738
7BA
400
1DF
0BD
036
7B2
7F7
1A9
158
000
77A
00C
000
74F
000
000
78C
016
7B2
0E5
166
000
02A
000
038
7AC
03A
041
014
0C3
065
010
0A2
77A
000
08A
76F
01D
025
008
000
000
7C1
7E4
000
054
000
066
710
047
202
0B5
00F
735
003
000
5BE
0C5
6DA
7D9
75A
000
192
026
658
000
0FB
28F
7E4
1B2
0DC
0A4
7AD
56F
287
000
7D5
754
000
7F3
704
125
76D
05A
000
76D
760
7AE
019
000
770
579
000
6E6
11C
000
038
057
79B
040

