1CC1
1E32
1E98
0000
0231
0000
1EB9
0000
0000
0349
1DA1
1FB0
1A8A
1D1C
0000
035B
0000
0353
0000
1BA0
0230
1C3F
1CAD
1ADD
0000
0000
1DA1
1DDB
0399
04A6
02B8
04F7
1C80
1B93
026C
1C3A
04D4
1D6B
0000
0140
0173
020F
1CB1
036D
1F56
1CBC
0000
1DE1
1DD6
0000
0423
1A8C
1FB0
1C98
036D
0000
0000
00D1
04DB
027C
027D
1EBD
0000
1A26
1BB6
1FD3
01A7
0594
04A4
1BFF
02EC
0162
0000
0000
02C3
1CF5
0000
0000
0000
1D2D
058D
1D06
0266
011F
02F9
0000
0000
1B46
02AB
1F5F
034F
0000
0000
1E09
1EA6
0128
1D7F
0000
1DF0
1D85
0000
1ED6
1DE5
1D28
007B
0000
1C36
1F35
0459
1CFD
1BFB
0000
0162
028E
0000
025B
0000
0105
06A0
1CBF
035A
09F4
0000
1E29
1EC1
0174
1F32
0000
1C5C
1FA5
0000
1CAE
1FDB
037F
0000
04C8
1DB8
1E2D
03F1
0113
0000
1A98
1FF0
0000

